{
  "version": "1.0",
  "truncation": null,
  "padding": null,
  "added_tokens": [
    {
      "id": 0,
      "content": "[UNK]",
      "single_word": false,
      "lstrip": false,
      "rstrip": false,
      "normalized": false,
      "special": true
    },
    {
      "id": 1,
      "content": "[CLS]",
      "single_word": false,
      "lstrip": false,
      "rstrip": false,
      "normalized": false,
      "special": true
    },
    {
      "id": 2,
      "content": "[SEP]",
      "single_word": false,
      "lstrip": false,
      "rstrip": false,
      "normalized": false,
      "special": true
    },
    {
      "id": 3,
      "content": "[PAD]",
      "single_word": false,
      "lstrip": false,
      "rstrip": false,
      "normalized": false,
      "special": true
    },
    {
      "id": 4,
      "content": "[MASK]",
      "single_word": false,
      "lstrip": false,
      "rstrip": false,
      "normalized": false,
      "special": true
    },
    {
      "id": 5,
      "content": "[END]",
      "single_word": false,
      "lstrip": false,
      "rstrip": false,
      "normalized": false,
      "special": true
    }
  ],
  "normalizer": null,
  "pre_tokenizer": {
    "type": "ByteLevel",
    "add_prefix_space": false,
    "trim_offsets": true,
    "use_regex": true
  },
  "post_processor": null,
  "decoder": {
    "type": "ByteLevel",
    "add_prefix_space": true,
    "trim_offsets": true,
    "use_regex": true
  },
  "model": {
    "type": "BPE",
    "dropout": null,
    "unk_token": "[UNK]",
    "continuing_subword_prefix": null,
    "end_of_word_suffix": null,
    "fuse_unk": false,
    "byte_fallback": false,
    "ignore_merges": false,
    "vocab": {
      "[UNK]": 0,
      "[CLS]": 1,
      "[SEP]": 2,
      "[PAD]": 3,
      "[MASK]": 4,
      "[END]": 5,
      "!": 6,
      "\"": 7,
      "$": 8,
      "'": 9,
      ",": 10,
      "-": 11,
      ".": 12,
      "0": 13,
      "1": 14,
      "2": 15,
      "3": 16,
      "4": 17,
      "5": 18,
      "6": 19,
      "7": 20,
      "8": 21,
      "9": 22,
      ":": 23,
      ";": 24,
      "?": 25,
      "A": 26,
      "B": 27,
      "C": 28,
      "D": 29,
      "E": 30,
      "F": 31,
      "G": 32,
      "H": 33,
      "I": 34,
      "J": 35,
      "K": 36,
      "L": 37,
      "M": 38,
      "N": 39,
      "O": 40,
      "P": 41,
      "Q": 42,
      "R": 43,
      "S": 44,
      "T": 45,
      "U": 46,
      "V": 47,
      "W": 48,
      "X": 49,
      "Y": 50,
      "Z": 51,
      "a": 52,
      "b": 53,
      "c": 54,
      "d": 55,
      "e": 56,
      "f": 57,
      "g": 58,
      "h": 59,
      "i": 60,
      "j": 61,
      "k": 62,
      "l": 63,
      "m": 64,
      "n": 65,
      "o": 66,
      "p": 67,
      "q": 68,
      "r": 69,
      "s": 70,
      "t": 71,
      "u": 72,
      "v": 73,
      "w": 74,
      "x": 75,
      "y": 76,
      "z": 77,
      "¡": 78,
      "¢": 79,
      "¦": 80,
      "©": 81,
      "«": 82,
      "¬": 83,
      "±": 84,
      "³": 85,
      "»": 86,
      "Â": 87,
      "Ã": 88,
      "Å": 89,
      "Ë": 90,
      "â": 91,
      "Ċ": 92,
      "č": 93,
      "Ġ": 94,
      "Ģ": 95,
      "Ĥ": 96,
      "ĥ": 97,
      "Ħ": 98,
      "ĵ": 99,
      "ľ": 100,
      "Ŀ": 101,
      "he": 102,
      "Ġt": 103,
      "Ġa": 104,
      "Ġs": 105,
      "Ġw": 106,
      "nd": 107,
      "Ġthe": 108,
      "ed": 109,
      "čĊ": 110,
      "in": 111,
      "Ġand": 112,
      "Ġb": 113,
      "Ġto": 114,
      "Ġwa": 115,
      "Ġh": 116,
      "re": 117,
      "it": 118,
      "Ġf": 119,
      "ou": 120,
      "er": 121,
      "Ġl": 122,
      "Ġhe": 123,
      "Ġwas": 124,
      "Ġc": 125,
      "Ġd": 126,
      "Ġm": 127,
      "Ġp": 128,
      "Ġo": 129,
      "ing": 130,
      "om": 131,
      "ar": 132,
      "ay": 133,
      "is": 134,
      "Ġg": 135,
      "The": 136,
      "id": 137,
      "at": 138,
      "ll": 139,
      "en": 140,
      "Ġsa": 141,
      "ne": 142,
      "Ġha": 143,
      "im": 144,
      "le": 145,
      "ĠS": 146,
      "an": 147,
      "or": 148,
      "Ġit": 149,
      "Ġth": 150,
      "ĠThe": 151,
      "et": 152,
      "ĠH": 153,
      "il": 154,
      "on": 155,
      "Ġher": 156,
      "ir": 157,
      "ver": 158,
      "Ġin": 159,
      "Ġe": 160,
      "ĠHe": 161,
      "Ġn": 162,
      "ot": 163,
      "ld": 164,
      "ĠShe": 165,
      "ut": 166,
      "ow": 167,
      "Ġu": 168,
      "Ġbe": 169,
      "ck": 170,
      "ce": 171,
      "Ġsaid": 172,
      "Ġshe": 173,
      "ig": 174,
      "Ġst": 175,
      "oo": 176,
      "Ġso": 177,
      "pp": 178,
      "Ġr": 179,
      "Ġ\"": 180,
      "am": 181,
      "Ġy": 182,
      "ke": 183,
      "Ġof": 184,
      "ve": 185,
      "ith": 186,
      "st": 187,
      "ked": 188,
      "Ġhis": 189,
      "very": 190,
      "Ġwith": 191,
      "ri": 192,
      "Ġday": 193,
      "ĠI": 194,
      "nt": 195,
      "ad": 196,
      "Ġpl": 197,
      "Ġup": 198,
      "Ġthat": 199,
      "ĠThey": 200,
      "Ġhad": 201,
      "Ġyou": 202,
      "ily": 203,
      "itt": 204,
      "ould": 205,
      "el": 206,
      "ĠT": 207,
      "ent": 208,
      "Ġon": 209,
      "ĠčĊ": 210,
      "es": 211,
      "Ġplay": 212,
      "Ġfor": 213,
      "ĠL": 214,
      "Ġthey": 215,
      "Ġwe": 216,
      "my": 217,
      "ittle": 218,
      "ound": 219,
      "un": 220,
      "out": 221,
      "Ġlittle": 222,
      "'s": 223,
      "ch": 224,
      "Ġmom": 225,
      "Ġhapp": 226,
      "ly": 227,
      "ime": 228,
      "Ġthere": 229,
      "her": 230,
      "Ġtime": 231,
      "all": 232,
      "Ġsm": 233,
      "Ġsh": 234,
      "Ġvery": 235,
      "Ġli": 236,
      "ht": 237,
      "Ġwh": 238,
      "Ġne": 239,
      "Ġre": 240,
      "ome": 241,
      "ĠB": 242,
      "al": 243,
      "Ġwant": 244,
      "se": 245,
      "Ġdo": 246,
      "end": 247,
      "ack": 248,
      "Ġk": 249,
      "Ġas": 250,
      "On": 251,
      "Ġhappy": 252,
      "Ġbig": 253,
      "Ġan": 254,
      "Ġbut": 255,
      "Once": 256,
      "ra": 257,
      "One": 258,
      "Ġsaw": 259,
      "riend": 260,
      "Ġfriend": 261,
      "ved": 262,
      "Ġloo": 263,
      "'t": 264,
      "irl": 265,
      "ore": 266,
      "ĠLily": 267,
      "ake": 268,
      "ec": 269,
      "ug": 270,
      "Ġgirl": 271,
      "ide": 272,
      "ter": 273,
      "ĠM": 274,
      "Ġbo": 275,
      "ĠIt": 276,
      "Ġwere": 277,
      "Ġex": 278,
      "ill": 279,
      "ĠJ": 280,
      "Ġupon": 281,
      "ry": 282,
      "Ġhim": 283,
      "Ġnot": 284,
      "Ġlo": 285,
      "Ġgo": 286,
      "!\"": 287,
      "Ġj": 288,
      "ard": 289,
      ".\"": 290,
      "Ġout": 291,
      "Ġsp": 292,
      "fu": 293,
      "Ġwanted": 294,
      "Ġar": 295,
      "Ġcould": 296,
      "way": 297,
      "Ġtoo": 298,
      "hen": 299,
      "ur": 300,
      "Ġis": 301,
      "Ã¢": 302,
      "âĤ": 303,
      "âĤ¬": 304,
      "hing": 305,
      "Ġse": 306,
      "ind": 307,
      "ain": 308,
      "ĠTim": 309,
      "ic": 310,
      "art": 311,
      "Ġat": 312,
      "Ġall": 313,
      "ĠA": 314,
      "hed": 315,
      "Ġwent": 316,
      "um": 317,
      "iled": 318,
      "ful": 319,
      "ight": 320,
      "rom": 321,
      "Ġsmiled": 322,
      "lp": 323,
      "Ġaround": 324,
      "Ġthem": 325,
      "Ġfriends": 326,
      "Ġhelp": 327,
      "Ġnam": 328,
      "oug": 329,
      "ood": 330,
      "Ġback": 331,
      "Ġdid": 332,
      "Ġcl": 333,
      "ark": 334,
      "omet": 335,
      "ss": 336,
      "Ġasked": 337,
      "?\"": 338,
      "Ġtheir": 339,
      "Ġca": 340,
      "Ġhave": 341,
      "Ġfun": 342,
      "Ġcan": 343,
      "Ġlooked": 344,
      "Ġsomet": 345,
      "Ġboy": 346,
      "Ġle": 347,
      "one": 348,
      "side": 349,
      "Ġstart": 350,
      "Ġal": 351,
      "ure": 352,
      "elt": 353,
      "Ġfe": 354,
      "Ġwould": 355,
      "Ġfelt": 356,
      "ick": 357,
      "op": 358,
      "Ġloved": 359,
      "Ġnamed": 360,
      "Ġno": 361,
      "dd": 362,
      "get": 363,
      "ĠOne": 364,
      "Ġare": 365,
      "ame": 366,
      "ited": 367,
      "Ġexc": 368,
      "Ġman": 369,
      "ie": 370,
      "ree": 371,
      "Ġsomething": 372,
      "king": 373,
      "ice": 374,
      "ong": 375,
      "Ġwor": 376,
      "Ġlike": 377,
      "Ġsc": 378,
      "Ġbir": 379,
      "Ġstarted": 380,
      "ro": 381,
      "Ġsome": 382,
      "gether": 383,
      "Ġag": 384,
      "Ġbird": 385,
      "Ġme": 386,
      "Ġfa": 387,
      "Ġro": 388,
      "ĠE": 389,
      "Ġsee": 390,
      "ĠTimmy": 391,
      "ade": 392,
      "ag": 393,
      "ĠW": 394,
      "own": 395,
      "pped": 396,
      "Ġaway": 397,
      "Ġexcited": 398,
      "Ġtogether": 399,
      "pl": 400,
      "ings": 401,
      "Ġran": 402,
      "oud": 403,
      "Ġtoy": 404,
      "ĠBen": 405,
      "Ġwhat": 406,
      "Ġthen": 407,
      "ared": 408,
      "Ġmake": 409,
      "Ġmu": 410,
      "ble": 411,
      "if": 412,
      "Ġhome": 413,
      "Ġla": 414,
      "You": 415,
      "Ġch": 416,
      "ally": 417,
      "Ġmade": 418,
      "Ġwal": 419,
      "qu": 420,
      "hat": 421,
      "ĠTom": 422,
      "Ġagain": 423,
      "as": 424,
      "Ġfound": 425,
      "Ġpark": 426,
      "Ġfrom": 427,
      ",\"": 428,
      "Ġdec": 429,
      "ell": 430,
      "Ġwhen": 431,
      "Ġnew": 432,
      "Ġbr": 433,
      "ous": 434,
      "Ġco": 435,
      "ep": 436,
      "Ġwho": 437,
      "ought": 438,
      "Ġevery": 439,
      "Ġot": 440,
      "Ġget": 441,
      "Ġput": 442,
      "ĠBut": 443,
      "Ġplaying": 444,
      "Ġother": 445,
      "Ġone": 446,
      "Ġsad": 447,
      "ile": 448,
      "udd": 449,
      "ided": 450,
      "Ġpr": 451,
      "Ġdecided": 452,
      "Ġfl": 453,
      "Ġcar": 454,
      "Ġold": 455,
      "ave": 456,
      "Ġv": 457,
      "Ġgot": 458,
      "Ġbu": 459,
      "Ġhug": 460,
      "bb": 461,
      "Ġsay": 462,
      "Ġgood": 463,
      "Ġthings": 464,
      "ach": 465,
      "ried": 466,
      "ĠD": 467,
      "ny": 468,
      "ust": 469,
      "Ġthan": 470,
      "eci": 471,
      "ouse": 472,
      "Ġbec": 473,
      "Ġfeel": 474,
      "Ġfind": 475,
      "Ġdown": 476,
      "udden": 477,
      "Ġke": 478,
      "Ġsw": 479,
      "Ġkn": 480,
      "Ġcame": 481,
      "ecial": 482,
      "Ġspecial": 483,
      "ways": 484,
      "Ġbl": 485,
      "uddenly": 486,
      "Ġtree": 487,
      "Ġab": 488,
      "nder": 489,
      "Ġalways": 490,
      "Ġlot": 491,
      "Ġscared": 492,
      "ue": 493,
      "Ġkne": 494,
      "Ġpo": 495,
      "ched": 496,
      "Ġtake": 497,
      "Ġthought": 498,
      "Ġint": 499,
      "ook": 500,
      "ant": 501,
      "ĠF": 502,
      "ist": 503,
      "Ġgra": 504,
      "our": 505,
      "ge": 506,
      "ite": 507,
      "Ġabout": 508,
      "Ġcare": 509,
      "Ġdad": 510,
      "Ġgr": 511,
      "Ġexpl": 512,
      "Ġtook": 513,
      "ĠEvery": 514,
      "Ġlook": 515,
      "ened": 516,
      "Ġdidn": 517,
      "fe": 518,
      "ise": 519,
      "Ġliked": 520,
      "Ġlaug": 521,
      "Åĵ": 522,
      "fter": 523,
      "uck": 524,
      "ĠYou": 525,
      "ma": 526,
      "Ġpe": 527,
      "reat": 528,
      "Ġta": 529,
      "Lily": 530,
      "Ġpa": 531,
      "Ġknew": 532,
      "ven": 533,
      "Ġdog": 534,
      "Ġho": 535,
      "Ġmore": 536,
      "Ġyour": 537,
      "Ġoutside": 538,
      "Ġtw": 539,
      "ers": 540,
      "Ġcat": 541,
      "Ġsk": 542,
      "ned": 543,
      "Ġcouldn": 544,
      "ive": 545,
      "Ġen": 546,
      "ĠJo": 547,
      "Ġhow": 548,
      "Ġmy": 549,
      "ace": 550,
      "Ġqu": 551,
      "Ġmuch": 552,
      "lly": 553,
      "by": 554,
      "ged": 555,
      "uc": 556,
      "ĠÃ¢": 557,
      "Ġsun": 558,
      "Ġmo": 559,
      "ret": 560,
      "ion": 561,
      "Ġnever": 562,
      "Ġinto": 563,
      "Ġtr": 564,
      "ara": 565,
      "Ġover": 566,
      "Ġany": 567,
      "ĠMom": 568,
      "Ġjo": 569,
      "Ġknow": 570,
      "Ġproud": 571,
      "Ġclo": 572,
      "us": 573,
      "Ġlear": 574,
      "ax": 575,
      "Ġshow": 576,
      "Ġthis": 577,
      "Ġstr": 578,
      "ough": 579,
      "ĠJack": 580,
      "hn": 581,
      "Ġif": 582,
      "Ġheard": 583,
      "Ġmommy": 584,
      "Ġsays": 585,
      "pt": 586,
      "vent": 587,
      "ish": 588,
      "Ġinside": 589,
      "ning": 590,
      "au": 591,
      "Ġcall": 592,
      "Ġad": 593,
      "Ġop": 594,
      "oth": 595,
      "Ġwill": 596,
      "Ġhouse": 597,
      "Ġfo": 598,
      "ild": 599,
      "dy": 600,
      "Ġball": 601,
      "ear": 602,
      "Ġhand": 603,
      "Ġtold": 604,
      "Ġoff": 605,
      "But": 606,
      "ort": 607,
      "sel": 608,
      "Ġgave": 609,
      "ving": 610,
      "Ġsmall": 611,
      "Ġtoys": 612,
      "other": 613,
      "âĤ¬â": 614,
      "here": 615,
      "na": 616,
      "Ġwat": 617,
      "Ġwater": 618,
      "Ġjust": 619,
      "Ġra": 620,
      "Ġbea": 621,
      "ĠSo": 622,
      "ntil": 623,
      "Ġpick": 624,
      "Ġrun": 625,
      "ause": 626,
      "ump": 627,
      "Ġcom": 628,
      "They": 629,
      "Ġuntil": 630,
      "Ġlong": 631,
      "Ġbeaut": 632,
      "urp": 633,
      "Ġtried": 634,
      "ate": 635,
      "Ġroom": 636,
      "Ġthanked": 637,
      "Ġtry": 638,
      "ady": 639,
      "Ħ¢": 640,
      "âĤ¬âĦ¢": 641,
      "Ġbecause": 642,
      "ank": 643,
      "ap": 644,
      "Ġlots": 645,
      "Ġgard": 646,
      "Ġgarden": 647,
      "etter": 648,
      "Ġplayed": 649,
      "Ġeven": 650,
      "ucy": 651,
      "Ġsl": 652,
      "Ġneed": 653,
      "Ġeat": 654,
      "ty": 655,
      "Ġby": 656,
      "ĠSam": 657,
      "ink": 658,
      "self": 659,
      "Ġbeauti": 660,
      "em": 661,
      "Ġbeautiful": 662,
      "Ġor": 663,
      "Ġcalled": 664,
      "Ġhugged": 665,
      "iz": 666,
      "Ġlaughed": 667,
      "nna": 668,
      "Ġway": 669,
      "Ġbest": 670,
      "ane": 671,
      "ct": 672,
      "Ġend": 673,
      "Ġflow": 674,
      "and": 675,
      "ered": 676,
      "ine": 677,
      "ob": 678,
      "sed": 679,
      "Ġsky": 680,
      "lew": 681,
      "Ġbear": 682,
      "ĠMax": 683,
      "rent": 684,
      "imal": 685,
      "Ġtwo": 686,
      "Ġanimal": 687,
      "ft": 688,
      "When": 689,
      "ia": 690,
      "Ġim": 691,
      "Ġpret": 692,
      "Ġexplore": 693,
      "Ġeach": 694,
      "Ġpu": 695,
      "It": 696,
      "Ġwo": 697,
      "Ġbox": 698,
      "Ġcu": 699,
      "ĠHis": 700,
      "rave": 701,
      "'m": 702,
      "Ġdon": 703,
      "He": 704,
      "Mom": 705,
      "Ġdre": 706,
      "Ġfast": 707,
      "ess": 708,
      "Ġlived": 709,
      "Ġche": 710,
      "Ġbetter": 711,
      "Ġnice": 712,
      "ĠHer": 713,
      "ect": 714,
      "Ġadvent": 715,
      "Ġfam": 716,
      "Ġkept": 717,
      "iny": 718,
      "Ġmany": 719,
      "Ġboth": 720,
      "urpr": 721,
      "Yes": 722,
      "ĠP": 723,
      "Let": 724,
      "Ġsurpr": 725,
      "Ġsmile": 726,
      "Ġcle": 727,
      "Ġkind": 728,
      "Ġjump": 729,
      "ĠSara": 730,
      "Ġstay": 731,
      "So": 732,
      "ĠC": 733,
      "ĠThen": 734,
      "Ġhard": 735,
      "Ġflew": 736,
      "are": 737,
      "Ġmum": 738,
      "Ġcome": 739,
      "Ġfin": 740,
      "fore": 741,
      "Ġrem": 742,
      "orry": 743,
      "What": 744,
      "Ġits": 745,
      "Ġfeeling": 746,
      "Ġsoon": 747,
      "Ġbrave": 748,
      "urt": 749,
      "Ġte": 750,
      "Ġgl": 751,
      "Ġwalked": 752,
      "ised": 753,
      "Ġstill": 754,
      "Ġadventure": 755,
      "ĠLucy": 756,
      "Ġfly": 757,
      "Ġfamily": 758,
      "Ġfi": 759,
      "ĠAnd": 760,
      "Ġsto": 761,
      "Th": 762,
      "Ġcol": 763,
      "igh": 764,
      "iced": 765,
      "Ġlove": 766,
      "led": 767,
      "Ġbefore": 768,
      "ĠFrom": 769,
      "Ġcareful": 770,
      "Ġlearned": 771,
      "Ġfore": 772,
      "Ġloud": 773,
      "Ġcon": 774,
      "ople": 775,
      "Ġanimals": 776,
      "Ġow": 777,
      "Ġplace": 778,
      "Ġsorry": 779,
      "ary": 780,
      "Ġwalking": 781,
      "Ġyear": 782,
      "gry": 783,
      "Ġfar": 784,
      "ip": 785,
      "ies": 786,
      "Ġunder": 787,
      "Ġsafe": 788,
      "ool": 789,
      "Ġgoing": 790,
      "Tom": 791,
      "ĠWe": 792,
      "oy": 793,
      "Ġimp": 794,
      "ied": 795,
      "Ġnow": 796,
      "illy": 797,
      "sh": 798,
      "ĠSuddenly": 799,
      "ĠWhen": 800,
      "Ġstopped": 801,
      "Ġfr": 802,
      "Ġpeople": 803,
      "Ġnoticed": 804,
      "xt": 805,
      "That": 806,
      "Ġlist": 807,
      "gan": 808,
      "Ġquick": 809,
      "ase": 810,
      "Jo": 811,
      "Ġlet": 812,
      "Ġdel": 813,
      "joy": 814,
      "Ġdan": 815,
      "Tim": 816,
      "ĠAnna": 817,
      "olly": 818,
      "maz": 819,
      "thing": 820,
      "Ġamaz": 821,
      "Ġthree": 822,
      "ished": 823,
      "dded": 824,
      "Ġstor": 825,
      "bbit": 826,
      "ious": 827,
      "Ġopened": 828,
      "ser": 829,
      "Ġey": 830,
      "Ġwind": 831,
      "Ġeveryone": 832,
      "Ġide": 833,
      "Ġma": 834,
      "eet": 835,
      "Ġvo": 836,
      "ĠJohn": 837,
      "Suddenly": 838,
      "ange": 839,
      "Ġquickly": 840,
      "ught": 841,
      "Ġwar": 842,
      "Ġdis": 843,
      "Ġde": 844,
      "Ġred": 845,
      "Ġwhile": 846,
      "Ġenjoy": 847,
      "Ġkeep": 848,
      "Ġrabbit": 849,
      "Ġidea": 850,
      "ting": 851,
      "Ġtow": 852,
      "Ġthr": 853,
      "ĠG": 854,
      "Ġgreat": 855,
      "Ġground": 856,
      "isy": 857,
      "Ġlooking": 858,
      "hes": 859,
      "Ġwonder": 860,
      "ummy": 861,
      "ger": 862,
      "Ġtre": 863,
      "Ġshould": 864,
      "Ġwork": 865,
      "age": 866,
      "Ġdoor": 867,
      "emb": 868,
      "ĠBob": 869,
      "Ġun": 870,
      "Ġshiny": 871,
      "Ġrepl": 872,
      "Ġbeen": 873,
      "Ġchild": 874,
      "Ġtur": 875,
      "Ġvoice": 876,
      "Ġwr": 877,
      "Ġnext": 878,
      "Ġbed": 879,
      "Ġever": 880,
      "Ġsn": 881,
      "Ġmor": 882,
      "Ġbright": 883,
      "Ġrememb": 884,
      "ted": 885,
      "Ġpicked": 886,
      "ff": 887,
      "ĠN": 888,
      "ĠJane": 889,
      "bye": 890,
      "Ġface": 891,
      "Ġeyes": 892,
      "hy": 893,
      "ner": 894,
      "ĠDad": 895,
      "Ġreal": 896,
      "Ġnodded": 897,
      "ak": 898,
      "Ġforest": 899,
      "Ġafter": 900,
      "Ġcuri": 901,
      "uch": 902,
      "Ġnear": 903,
      "Ġwalk": 904,
      "Ġreplied": 905,
      "Ġrock": 906,
      "Ġgoodbye": 907,
      "Ġclean": 908,
      "Ġnoise": 909,
      "aisy": 910,
      "Ġdra": 911,
      "Ġbegan": 912,
      "Ġcloser": 913,
      "able": 914,
      "Ġcry": 915,
      "Ġgive": 916,
      "Ġpretty": 917,
      "Ġsqu": 918,
      "Ġshare": 919,
      "Ġhands": 920,
      "Ġcurious": 921,
      "Ġgre": 922,
      "bbed": 923,
      "Ġhurt": 924,
      "Ġper": 925,
      "Ġfood": 926,
      "Ġpain": 927,
      "ock": 928,
      "lie": 929,
      "Ġpic": 930,
      "Ġblue": 931,
      "ĠAs": 932,
      "irst": 933,
      "Ġbad": 934,
      "Ġwait": 935,
      "Ġapp": 936,
      "Ġsound": 937,
      "Ġdif": 938,
      "Ġwatched": 939,
      "Ġstrong": 940,
      "Ġtruck": 941,
      "day": 942,
      "Ġbook": 943,
      "Ġfish": 944,
      "Ġbeing": 945,
      "Ġright": 946,
      "Ġcolor": 947,
      "Ġworld": 948,
      "ng": 949,
      "ired": 950,
      "be": 951,
      "Ġbit": 952,
      "ĠMia": 953,
      "John": 954,
      "les": 955,
      "ĠJoe": 956,
      "Ġwatch": 957,
      "Ġmag": 958,
      "imb": 959,
      "Ġdoll": 960,
      "Ġbecame": 961,
      "Ġshout": 962,
      "ĠEveryone": 963,
      "Ġclimb": 964,
      "Ġ-": 965,
      "Ġleave": 966,
      "Ġboat": 967,
      "Ġthrough": 968,
      "llow": 969,
      "Ġyell": 970,
      "ull": 971,
      "ster": 972,
      "ĠMommy": 973,
      "Ġsure": 974,
      "Ġangry": 975,
      "No": 976,
      "kay": 977,
      "Ġbutter": 978,
      "Ġstore": 979,
      "oon": 980,
      "Ġhere": 981,
      "Ġmouse": 982,
      "Ġnight": 983,
      "Ġyears": 984,
      "Ġhopped": 985,
      "Ġac": 986,
      "Ġwhere": 987,
      "Ġhead": 988,
      "ĠDaisy": 989,
      "Ġshowed": 990,
      "ĠR": 991,
      "ream": 992,
      "Ġcont": 993,
      "so": 994,
      "ppy": 995,
      "Ġrain": 996,
      "Ġseen": 997,
      "ached": 998,
      "Ġready": 999
    },
    "merges": [
      [
        "h",
        "e"
      ],
      [
        "Ġ",
        "t"
      ],
      [
        "Ġ",
        "a"
      ],
      [
        "Ġ",
        "s"
      ],
      [
        "Ġ",
        "w"
      ],
      [
        "n",
        "d"
      ],
      [
        "Ġt",
        "he"
      ],
      [
        "e",
        "d"
      ],
      [
        "č",
        "Ċ"
      ],
      [
        "i",
        "n"
      ],
      [
        "Ġa",
        "nd"
      ],
      [
        "Ġ",
        "b"
      ],
      [
        "Ġt",
        "o"
      ],
      [
        "Ġw",
        "a"
      ],
      [
        "Ġ",
        "h"
      ],
      [
        "r",
        "e"
      ],
      [
        "i",
        "t"
      ],
      [
        "Ġ",
        "f"
      ],
      [
        "o",
        "u"
      ],
      [
        "e",
        "r"
      ],
      [
        "Ġ",
        "l"
      ],
      [
        "Ġ",
        "he"
      ],
      [
        "Ġwa",
        "s"
      ],
      [
        "Ġ",
        "c"
      ],
      [
        "Ġ",
        "d"
      ],
      [
        "Ġ",
        "m"
      ],
      [
        "Ġ",
        "p"
      ],
      [
        "Ġ",
        "o"
      ],
      [
        "in",
        "g"
      ],
      [
        "o",
        "m"
      ],
      [
        "a",
        "r"
      ],
      [
        "a",
        "y"
      ],
      [
        "i",
        "s"
      ],
      [
        "Ġ",
        "g"
      ],
      [
        "T",
        "he"
      ],
      [
        "i",
        "d"
      ],
      [
        "a",
        "t"
      ],
      [
        "l",
        "l"
      ],
      [
        "e",
        "n"
      ],
      [
        "Ġs",
        "a"
      ],
      [
        "n",
        "e"
      ],
      [
        "Ġh",
        "a"
      ],
      [
        "i",
        "m"
      ],
      [
        "l",
        "e"
      ],
      [
        "Ġ",
        "S"
      ],
      [
        "a",
        "n"
      ],
      [
        "o",
        "r"
      ],
      [
        "Ġ",
        "it"
      ],
      [
        "Ġt",
        "h"
      ],
      [
        "Ġ",
        "The"
      ],
      [
        "e",
        "t"
      ],
      [
        "Ġ",
        "H"
      ],
      [
        "i",
        "l"
      ],
      [
        "o",
        "n"
      ],
      [
        "Ġhe",
        "r"
      ],
      [
        "i",
        "r"
      ],
      [
        "v",
        "er"
      ],
      [
        "Ġ",
        "in"
      ],
      [
        "Ġ",
        "e"
      ],
      [
        "ĠH",
        "e"
      ],
      [
        "Ġ",
        "n"
      ],
      [
        "o",
        "t"
      ],
      [
        "l",
        "d"
      ],
      [
        "ĠS",
        "he"
      ],
      [
        "u",
        "t"
      ],
      [
        "o",
        "w"
      ],
      [
        "Ġ",
        "u"
      ],
      [
        "Ġb",
        "e"
      ],
      [
        "c",
        "k"
      ],
      [
        "c",
        "e"
      ],
      [
        "Ġsa",
        "id"
      ],
      [
        "Ġs",
        "he"
      ],
      [
        "i",
        "g"
      ],
      [
        "Ġs",
        "t"
      ],
      [
        "o",
        "o"
      ],
      [
        "Ġs",
        "o"
      ],
      [
        "p",
        "p"
      ],
      [
        "Ġ",
        "r"
      ],
      [
        "Ġ",
        "\""
      ],
      [
        "a",
        "m"
      ],
      [
        "Ġ",
        "y"
      ],
      [
        "k",
        "e"
      ],
      [
        "Ġo",
        "f"
      ],
      [
        "v",
        "e"
      ],
      [
        "it",
        "h"
      ],
      [
        "s",
        "t"
      ],
      [
        "k",
        "ed"
      ],
      [
        "Ġh",
        "is"
      ],
      [
        "ver",
        "y"
      ],
      [
        "Ġw",
        "ith"
      ],
      [
        "r",
        "i"
      ],
      [
        "Ġd",
        "ay"
      ],
      [
        "Ġ",
        "I"
      ],
      [
        "n",
        "t"
      ],
      [
        "a",
        "d"
      ],
      [
        "Ġp",
        "l"
      ],
      [
        "Ġu",
        "p"
      ],
      [
        "Ġth",
        "at"
      ],
      [
        "ĠThe",
        "y"
      ],
      [
        "Ġha",
        "d"
      ],
      [
        "Ġy",
        "ou"
      ],
      [
        "il",
        "y"
      ],
      [
        "it",
        "t"
      ],
      [
        "ou",
        "ld"
      ],
      [
        "e",
        "l"
      ],
      [
        "Ġ",
        "T"
      ],
      [
        "en",
        "t"
      ],
      [
        "Ġo",
        "n"
      ],
      [
        "Ġ",
        "čĊ"
      ],
      [
        "e",
        "s"
      ],
      [
        "Ġpl",
        "ay"
      ],
      [
        "Ġf",
        "or"
      ],
      [
        "Ġ",
        "L"
      ],
      [
        "Ġthe",
        "y"
      ],
      [
        "Ġw",
        "e"
      ],
      [
        "m",
        "y"
      ],
      [
        "itt",
        "le"
      ],
      [
        "ou",
        "nd"
      ],
      [
        "u",
        "n"
      ],
      [
        "ou",
        "t"
      ],
      [
        "Ġl",
        "ittle"
      ],
      [
        "'",
        "s"
      ],
      [
        "c",
        "h"
      ],
      [
        "Ġm",
        "om"
      ],
      [
        "Ġha",
        "pp"
      ],
      [
        "l",
        "y"
      ],
      [
        "im",
        "e"
      ],
      [
        "Ġthe",
        "re"
      ],
      [
        "he",
        "r"
      ],
      [
        "Ġt",
        "ime"
      ],
      [
        "a",
        "ll"
      ],
      [
        "Ġs",
        "m"
      ],
      [
        "Ġs",
        "h"
      ],
      [
        "Ġ",
        "very"
      ],
      [
        "Ġl",
        "i"
      ],
      [
        "h",
        "t"
      ],
      [
        "Ġw",
        "h"
      ],
      [
        "Ġ",
        "ne"
      ],
      [
        "Ġ",
        "re"
      ],
      [
        "om",
        "e"
      ],
      [
        "Ġ",
        "B"
      ],
      [
        "a",
        "l"
      ],
      [
        "Ġwa",
        "nt"
      ],
      [
        "s",
        "e"
      ],
      [
        "Ġd",
        "o"
      ],
      [
        "e",
        "nd"
      ],
      [
        "a",
        "ck"
      ],
      [
        "Ġ",
        "k"
      ],
      [
        "Ġa",
        "s"
      ],
      [
        "O",
        "n"
      ],
      [
        "Ġhapp",
        "y"
      ],
      [
        "Ġb",
        "ig"
      ],
      [
        "Ġa",
        "n"
      ],
      [
        "Ġb",
        "ut"
      ],
      [
        "On",
        "ce"
      ],
      [
        "r",
        "a"
      ],
      [
        "O",
        "ne"
      ],
      [
        "Ġsa",
        "w"
      ],
      [
        "ri",
        "end"
      ],
      [
        "Ġf",
        "riend"
      ],
      [
        "v",
        "ed"
      ],
      [
        "Ġl",
        "oo"
      ],
      [
        "'",
        "t"
      ],
      [
        "ir",
        "l"
      ],
      [
        "o",
        "re"
      ],
      [
        "ĠL",
        "ily"
      ],
      [
        "a",
        "ke"
      ],
      [
        "e",
        "c"
      ],
      [
        "u",
        "g"
      ],
      [
        "Ġg",
        "irl"
      ],
      [
        "id",
        "e"
      ],
      [
        "t",
        "er"
      ],
      [
        "Ġ",
        "M"
      ],
      [
        "Ġb",
        "o"
      ],
      [
        "ĠI",
        "t"
      ],
      [
        "Ġwe",
        "re"
      ],
      [
        "Ġe",
        "x"
      ],
      [
        "i",
        "ll"
      ],
      [
        "Ġ",
        "J"
      ],
      [
        "Ġup",
        "on"
      ],
      [
        "r",
        "y"
      ],
      [
        "Ġh",
        "im"
      ],
      [
        "Ġn",
        "ot"
      ],
      [
        "Ġl",
        "o"
      ],
      [
        "Ġg",
        "o"
      ],
      [
        "!",
        "\""
      ],
      [
        "Ġ",
        "j"
      ],
      [
        "ar",
        "d"
      ],
      [
        ".",
        "\""
      ],
      [
        "Ġ",
        "out"
      ],
      [
        "Ġs",
        "p"
      ],
      [
        "f",
        "u"
      ],
      [
        "Ġwant",
        "ed"
      ],
      [
        "Ġa",
        "r"
      ],
      [
        "Ġc",
        "ould"
      ],
      [
        "w",
        "ay"
      ],
      [
        "Ġto",
        "o"
      ],
      [
        "he",
        "n"
      ],
      [
        "u",
        "r"
      ],
      [
        "Ġ",
        "is"
      ],
      [
        "Ã",
        "¢"
      ],
      [
        "â",
        "Ĥ"
      ],
      [
        "âĤ",
        "¬"
      ],
      [
        "h",
        "ing"
      ],
      [
        "Ġs",
        "e"
      ],
      [
        "i",
        "nd"
      ],
      [
        "a",
        "in"
      ],
      [
        "ĠT",
        "im"
      ],
      [
        "i",
        "c"
      ],
      [
        "ar",
        "t"
      ],
      [
        "Ġa",
        "t"
      ],
      [
        "Ġa",
        "ll"
      ],
      [
        "Ġ",
        "A"
      ],
      [
        "he",
        "d"
      ],
      [
        "Ġw",
        "ent"
      ],
      [
        "u",
        "m"
      ],
      [
        "il",
        "ed"
      ],
      [
        "fu",
        "l"
      ],
      [
        "ig",
        "ht"
      ],
      [
        "r",
        "om"
      ],
      [
        "Ġsm",
        "iled"
      ],
      [
        "l",
        "p"
      ],
      [
        "Ġar",
        "ound"
      ],
      [
        "Ġthe",
        "m"
      ],
      [
        "Ġfriend",
        "s"
      ],
      [
        "Ġhe",
        "lp"
      ],
      [
        "Ġn",
        "am"
      ],
      [
        "ou",
        "g"
      ],
      [
        "oo",
        "d"
      ],
      [
        "Ġb",
        "ack"
      ],
      [
        "Ġd",
        "id"
      ],
      [
        "Ġc",
        "l"
      ],
      [
        "ar",
        "k"
      ],
      [
        "om",
        "et"
      ],
      [
        "s",
        "s"
      ],
      [
        "Ġas",
        "ked"
      ],
      [
        "?",
        "\""
      ],
      [
        "Ġthe",
        "ir"
      ],
      [
        "Ġc",
        "a"
      ],
      [
        "Ġha",
        "ve"
      ],
      [
        "Ġf",
        "un"
      ],
      [
        "Ġc",
        "an"
      ],
      [
        "Ġloo",
        "ked"
      ],
      [
        "Ġs",
        "omet"
      ],
      [
        "Ġbo",
        "y"
      ],
      [
        "Ġl",
        "e"
      ],
      [
        "o",
        "ne"
      ],
      [
        "s",
        "ide"
      ],
      [
        "Ġst",
        "art"
      ],
      [
        "Ġa",
        "l"
      ],
      [
        "u",
        "re"
      ],
      [
        "el",
        "t"
      ],
      [
        "Ġf",
        "e"
      ],
      [
        "Ġw",
        "ould"
      ],
      [
        "Ġf",
        "elt"
      ],
      [
        "i",
        "ck"
      ],
      [
        "o",
        "p"
      ],
      [
        "Ġlo",
        "ved"
      ],
      [
        "Ġnam",
        "ed"
      ],
      [
        "Ġn",
        "o"
      ],
      [
        "d",
        "d"
      ],
      [
        "g",
        "et"
      ],
      [
        "Ġ",
        "One"
      ],
      [
        "Ġa",
        "re"
      ],
      [
        "am",
        "e"
      ],
      [
        "it",
        "ed"
      ],
      [
        "Ġex",
        "c"
      ],
      [
        "Ġm",
        "an"
      ],
      [
        "i",
        "e"
      ],
      [
        "re",
        "e"
      ],
      [
        "Ġsomet",
        "hing"
      ],
      [
        "k",
        "ing"
      ],
      [
        "i",
        "ce"
      ],
      [
        "on",
        "g"
      ],
      [
        "Ġw",
        "or"
      ],
      [
        "Ġli",
        "ke"
      ],
      [
        "Ġs",
        "c"
      ],
      [
        "Ġb",
        "ir"
      ],
      [
        "Ġstart",
        "ed"
      ],
      [
        "r",
        "o"
      ],
      [
        "Ġs",
        "ome"
      ],
      [
        "get",
        "her"
      ],
      [
        "Ġa",
        "g"
      ],
      [
        "Ġbir",
        "d"
      ],
      [
        "Ġm",
        "e"
      ],
      [
        "Ġf",
        "a"
      ],
      [
        "Ġr",
        "o"
      ],
      [
        "Ġ",
        "E"
      ],
      [
        "Ġse",
        "e"
      ],
      [
        "ĠTim",
        "my"
      ],
      [
        "ad",
        "e"
      ],
      [
        "a",
        "g"
      ],
      [
        "Ġ",
        "W"
      ],
      [
        "ow",
        "n"
      ],
      [
        "pp",
        "ed"
      ],
      [
        "Ġa",
        "way"
      ],
      [
        "Ġexc",
        "ited"
      ],
      [
        "Ġto",
        "gether"
      ],
      [
        "p",
        "l"
      ],
      [
        "ing",
        "s"
      ],
      [
        "Ġr",
        "an"
      ],
      [
        "ou",
        "d"
      ],
      [
        "Ġto",
        "y"
      ],
      [
        "ĠB",
        "en"
      ],
      [
        "Ġwh",
        "at"
      ],
      [
        "Ġthe",
        "n"
      ],
      [
        "ar",
        "ed"
      ],
      [
        "Ġm",
        "ake"
      ],
      [
        "Ġm",
        "u"
      ],
      [
        "b",
        "le"
      ],
      [
        "i",
        "f"
      ],
      [
        "Ġh",
        "ome"
      ],
      [
        "Ġl",
        "a"
      ],
      [
        "Y",
        "ou"
      ],
      [
        "Ġc",
        "h"
      ],
      [
        "all",
        "y"
      ],
      [
        "Ġm",
        "ade"
      ],
      [
        "Ġwa",
        "l"
      ],
      [
        "q",
        "u"
      ],
      [
        "h",
        "at"
      ],
      [
        "ĠT",
        "om"
      ],
      [
        "Ġag",
        "ain"
      ],
      [
        "a",
        "s"
      ],
      [
        "Ġf",
        "ound"
      ],
      [
        "Ġp",
        "ark"
      ],
      [
        "Ġf",
        "rom"
      ],
      [
        ",",
        "\""
      ],
      [
        "Ġd",
        "ec"
      ],
      [
        "e",
        "ll"
      ],
      [
        "Ġw",
        "hen"
      ],
      [
        "Ġne",
        "w"
      ],
      [
        "Ġb",
        "r"
      ],
      [
        "ou",
        "s"
      ],
      [
        "Ġc",
        "o"
      ],
      [
        "e",
        "p"
      ],
      [
        "Ġwh",
        "o"
      ],
      [
        "oug",
        "ht"
      ],
      [
        "Ġe",
        "very"
      ],
      [
        "Ġo",
        "t"
      ],
      [
        "Ġg",
        "et"
      ],
      [
        "Ġp",
        "ut"
      ],
      [
        "ĠB",
        "ut"
      ],
      [
        "Ġplay",
        "ing"
      ],
      [
        "Ġot",
        "her"
      ],
      [
        "Ġo",
        "ne"
      ],
      [
        "Ġsa",
        "d"
      ],
      [
        "i",
        "le"
      ],
      [
        "u",
        "dd"
      ],
      [
        "id",
        "ed"
      ],
      [
        "Ġp",
        "r"
      ],
      [
        "Ġdec",
        "ided"
      ],
      [
        "Ġf",
        "l"
      ],
      [
        "Ġc",
        "ar"
      ],
      [
        "Ġo",
        "ld"
      ],
      [
        "a",
        "ve"
      ],
      [
        "Ġ",
        "v"
      ],
      [
        "Ġg",
        "ot"
      ],
      [
        "Ġb",
        "u"
      ],
      [
        "Ġh",
        "ug"
      ],
      [
        "b",
        "b"
      ],
      [
        "Ġs",
        "ay"
      ],
      [
        "Ġg",
        "ood"
      ],
      [
        "Ġth",
        "ings"
      ],
      [
        "a",
        "ch"
      ],
      [
        "ri",
        "ed"
      ],
      [
        "Ġ",
        "D"
      ],
      [
        "n",
        "y"
      ],
      [
        "u",
        "st"
      ],
      [
        "Ġth",
        "an"
      ],
      [
        "ec",
        "i"
      ],
      [
        "ou",
        "se"
      ],
      [
        "Ġbe",
        "c"
      ],
      [
        "Ġfe",
        "el"
      ],
      [
        "Ġf",
        "ind"
      ],
      [
        "Ġd",
        "own"
      ],
      [
        "udd",
        "en"
      ],
      [
        "Ġ",
        "ke"
      ],
      [
        "Ġs",
        "w"
      ],
      [
        "Ġk",
        "n"
      ],
      [
        "Ġc",
        "ame"
      ],
      [
        "eci",
        "al"
      ],
      [
        "Ġsp",
        "ecial"
      ],
      [
        "way",
        "s"
      ],
      [
        "Ġb",
        "l"
      ],
      [
        "udden",
        "ly"
      ],
      [
        "Ġt",
        "ree"
      ],
      [
        "Ġa",
        "b"
      ],
      [
        "nd",
        "er"
      ],
      [
        "Ġal",
        "ways"
      ],
      [
        "Ġl",
        "ot"
      ],
      [
        "Ġsc",
        "ared"
      ],
      [
        "u",
        "e"
      ],
      [
        "Ġk",
        "ne"
      ],
      [
        "Ġp",
        "o"
      ],
      [
        "c",
        "hed"
      ],
      [
        "Ġt",
        "ake"
      ],
      [
        "Ġth",
        "ought"
      ],
      [
        "Ġin",
        "t"
      ],
      [
        "oo",
        "k"
      ],
      [
        "an",
        "t"
      ],
      [
        "Ġ",
        "F"
      ],
      [
        "is",
        "t"
      ],
      [
        "Ġg",
        "ra"
      ],
      [
        "ou",
        "r"
      ],
      [
        "g",
        "e"
      ],
      [
        "it",
        "e"
      ],
      [
        "Ġab",
        "out"
      ],
      [
        "Ġca",
        "re"
      ],
      [
        "Ġd",
        "ad"
      ],
      [
        "Ġg",
        "r"
      ],
      [
        "Ġex",
        "pl"
      ],
      [
        "Ġtoo",
        "k"
      ],
      [
        "ĠE",
        "very"
      ],
      [
        "Ġloo",
        "k"
      ],
      [
        "en",
        "ed"
      ],
      [
        "Ġdid",
        "n"
      ],
      [
        "f",
        "e"
      ],
      [
        "is",
        "e"
      ],
      [
        "Ġli",
        "ked"
      ],
      [
        "Ġla",
        "ug"
      ],
      [
        "Å",
        "ĵ"
      ],
      [
        "f",
        "ter"
      ],
      [
        "u",
        "ck"
      ],
      [
        "Ġ",
        "You"
      ],
      [
        "m",
        "a"
      ],
      [
        "Ġp",
        "e"
      ],
      [
        "re",
        "at"
      ],
      [
        "Ġt",
        "a"
      ],
      [
        "L",
        "ily"
      ],
      [
        "Ġp",
        "a"
      ],
      [
        "Ġkne",
        "w"
      ],
      [
        "v",
        "en"
      ],
      [
        "Ġdo",
        "g"
      ],
      [
        "Ġh",
        "o"
      ],
      [
        "Ġm",
        "ore"
      ],
      [
        "Ġyou",
        "r"
      ],
      [
        "Ġout",
        "side"
      ],
      [
        "Ġt",
        "w"
      ],
      [
        "er",
        "s"
      ],
      [
        "Ġc",
        "at"
      ],
      [
        "Ġs",
        "k"
      ],
      [
        "n",
        "ed"
      ],
      [
        "Ġcould",
        "n"
      ],
      [
        "i",
        "ve"
      ],
      [
        "Ġ",
        "en"
      ],
      [
        "ĠJ",
        "o"
      ],
      [
        "Ġh",
        "ow"
      ],
      [
        "Ġm",
        "y"
      ],
      [
        "a",
        "ce"
      ],
      [
        "Ġ",
        "qu"
      ],
      [
        "Ġmu",
        "ch"
      ],
      [
        "ll",
        "y"
      ],
      [
        "b",
        "y"
      ],
      [
        "g",
        "ed"
      ],
      [
        "u",
        "c"
      ],
      [
        "Ġ",
        "Ã¢"
      ],
      [
        "Ġs",
        "un"
      ],
      [
        "Ġm",
        "o"
      ],
      [
        "re",
        "t"
      ],
      [
        "i",
        "on"
      ],
      [
        "Ġne",
        "ver"
      ],
      [
        "Ġint",
        "o"
      ],
      [
        "Ġt",
        "r"
      ],
      [
        "ar",
        "a"
      ],
      [
        "Ġo",
        "ver"
      ],
      [
        "Ġan",
        "y"
      ],
      [
        "ĠM",
        "om"
      ],
      [
        "Ġj",
        "o"
      ],
      [
        "Ġkn",
        "ow"
      ],
      [
        "Ġpr",
        "oud"
      ],
      [
        "Ġcl",
        "o"
      ],
      [
        "u",
        "s"
      ],
      [
        "Ġle",
        "ar"
      ],
      [
        "a",
        "x"
      ],
      [
        "Ġsh",
        "ow"
      ],
      [
        "Ġth",
        "is"
      ],
      [
        "Ġst",
        "r"
      ],
      [
        "oug",
        "h"
      ],
      [
        "ĠJ",
        "ack"
      ],
      [
        "h",
        "n"
      ],
      [
        "Ġ",
        "if"
      ],
      [
        "Ġhe",
        "ard"
      ],
      [
        "Ġmom",
        "my"
      ],
      [
        "Ġsay",
        "s"
      ],
      [
        "p",
        "t"
      ],
      [
        "v",
        "ent"
      ],
      [
        "is",
        "h"
      ],
      [
        "Ġin",
        "side"
      ],
      [
        "n",
        "ing"
      ],
      [
        "a",
        "u"
      ],
      [
        "Ġc",
        "all"
      ],
      [
        "Ġa",
        "d"
      ],
      [
        "Ġo",
        "p"
      ],
      [
        "ot",
        "h"
      ],
      [
        "Ġw",
        "ill"
      ],
      [
        "Ġh",
        "ouse"
      ],
      [
        "Ġf",
        "o"
      ],
      [
        "il",
        "d"
      ],
      [
        "d",
        "y"
      ],
      [
        "Ġb",
        "all"
      ],
      [
        "e",
        "ar"
      ],
      [
        "Ġha",
        "nd"
      ],
      [
        "Ġto",
        "ld"
      ],
      [
        "Ġof",
        "f"
      ],
      [
        "B",
        "ut"
      ],
      [
        "or",
        "t"
      ],
      [
        "s",
        "el"
      ],
      [
        "Ġg",
        "ave"
      ],
      [
        "v",
        "ing"
      ],
      [
        "Ġsm",
        "all"
      ],
      [
        "Ġtoy",
        "s"
      ],
      [
        "ot",
        "her"
      ],
      [
        "âĤ¬",
        "â"
      ],
      [
        "he",
        "re"
      ],
      [
        "n",
        "a"
      ],
      [
        "Ġwa",
        "t"
      ],
      [
        "Ġwa",
        "ter"
      ],
      [
        "Ġj",
        "ust"
      ],
      [
        "Ġr",
        "a"
      ],
      [
        "Ġbe",
        "a"
      ],
      [
        "ĠS",
        "o"
      ],
      [
        "nt",
        "il"
      ],
      [
        "Ġp",
        "ick"
      ],
      [
        "Ġr",
        "un"
      ],
      [
        "au",
        "se"
      ],
      [
        "um",
        "p"
      ],
      [
        "Ġc",
        "om"
      ],
      [
        "The",
        "y"
      ],
      [
        "Ġu",
        "ntil"
      ],
      [
        "Ġl",
        "ong"
      ],
      [
        "Ġbea",
        "ut"
      ],
      [
        "ur",
        "p"
      ],
      [
        "Ġt",
        "ried"
      ],
      [
        "at",
        "e"
      ],
      [
        "Ġro",
        "om"
      ],
      [
        "Ġthan",
        "ked"
      ],
      [
        "Ġt",
        "ry"
      ],
      [
        "ad",
        "y"
      ],
      [
        "Ħ",
        "¢"
      ],
      [
        "âĤ¬â",
        "Ħ¢"
      ],
      [
        "Ġbec",
        "ause"
      ],
      [
        "an",
        "k"
      ],
      [
        "a",
        "p"
      ],
      [
        "Ġlot",
        "s"
      ],
      [
        "Ġg",
        "ard"
      ],
      [
        "Ġgard",
        "en"
      ],
      [
        "et",
        "ter"
      ],
      [
        "Ġplay",
        "ed"
      ],
      [
        "Ġe",
        "ven"
      ],
      [
        "uc",
        "y"
      ],
      [
        "Ġs",
        "l"
      ],
      [
        "Ġne",
        "ed"
      ],
      [
        "Ġe",
        "at"
      ],
      [
        "t",
        "y"
      ],
      [
        "Ġb",
        "y"
      ],
      [
        "ĠS",
        "am"
      ],
      [
        "in",
        "k"
      ],
      [
        "sel",
        "f"
      ],
      [
        "Ġbeaut",
        "i"
      ],
      [
        "e",
        "m"
      ],
      [
        "Ġbeauti",
        "ful"
      ],
      [
        "Ġo",
        "r"
      ],
      [
        "Ġcall",
        "ed"
      ],
      [
        "Ġhug",
        "ged"
      ],
      [
        "i",
        "z"
      ],
      [
        "Ġlaug",
        "hed"
      ],
      [
        "n",
        "na"
      ],
      [
        "Ġwa",
        "y"
      ],
      [
        "Ġbe",
        "st"
      ],
      [
        "a",
        "ne"
      ],
      [
        "c",
        "t"
      ],
      [
        "Ġe",
        "nd"
      ],
      [
        "Ġfl",
        "ow"
      ],
      [
        "a",
        "nd"
      ],
      [
        "er",
        "ed"
      ],
      [
        "in",
        "e"
      ],
      [
        "o",
        "b"
      ],
      [
        "s",
        "ed"
      ],
      [
        "Ġsk",
        "y"
      ],
      [
        "le",
        "w"
      ],
      [
        "Ġbe",
        "ar"
      ],
      [
        "ĠM",
        "ax"
      ],
      [
        "re",
        "nt"
      ],
      [
        "im",
        "al"
      ],
      [
        "Ġtw",
        "o"
      ],
      [
        "Ġan",
        "imal"
      ],
      [
        "f",
        "t"
      ],
      [
        "W",
        "hen"
      ],
      [
        "i",
        "a"
      ],
      [
        "Ġ",
        "im"
      ],
      [
        "Ġp",
        "ret"
      ],
      [
        "Ġexpl",
        "ore"
      ],
      [
        "Ġe",
        "ach"
      ],
      [
        "Ġp",
        "u"
      ],
      [
        "I",
        "t"
      ],
      [
        "Ġw",
        "o"
      ],
      [
        "Ġbo",
        "x"
      ],
      [
        "Ġc",
        "u"
      ],
      [
        "ĠH",
        "is"
      ],
      [
        "ra",
        "ve"
      ],
      [
        "'",
        "m"
      ],
      [
        "Ġd",
        "on"
      ],
      [
        "H",
        "e"
      ],
      [
        "M",
        "om"
      ],
      [
        "Ġd",
        "re"
      ],
      [
        "Ġfa",
        "st"
      ],
      [
        "es",
        "s"
      ],
      [
        "Ġli",
        "ved"
      ],
      [
        "Ġc",
        "he"
      ],
      [
        "Ġb",
        "etter"
      ],
      [
        "Ġn",
        "ice"
      ],
      [
        "ĠH",
        "er"
      ],
      [
        "ec",
        "t"
      ],
      [
        "Ġad",
        "vent"
      ],
      [
        "Ġf",
        "am"
      ],
      [
        "Ġke",
        "pt"
      ],
      [
        "in",
        "y"
      ],
      [
        "Ġman",
        "y"
      ],
      [
        "Ġb",
        "oth"
      ],
      [
        "urp",
        "r"
      ],
      [
        "Y",
        "es"
      ],
      [
        "Ġ",
        "P"
      ],
      [
        "L",
        "et"
      ],
      [
        "Ġs",
        "urpr"
      ],
      [
        "Ġsm",
        "ile"
      ],
      [
        "Ġc",
        "le"
      ],
      [
        "Ġk",
        "ind"
      ],
      [
        "Ġj",
        "ump"
      ],
      [
        "ĠS",
        "ara"
      ],
      [
        "Ġst",
        "ay"
      ],
      [
        "S",
        "o"
      ],
      [
        "Ġ",
        "C"
      ],
      [
        "ĠThe",
        "n"
      ],
      [
        "Ġh",
        "ard"
      ],
      [
        "Ġf",
        "lew"
      ],
      [
        "a",
        "re"
      ],
      [
        "Ġm",
        "um"
      ],
      [
        "Ġc",
        "ome"
      ],
      [
        "Ġf",
        "in"
      ],
      [
        "f",
        "ore"
      ],
      [
        "Ġre",
        "m"
      ],
      [
        "or",
        "ry"
      ],
      [
        "W",
        "hat"
      ],
      [
        "Ġit",
        "s"
      ],
      [
        "Ġfeel",
        "ing"
      ],
      [
        "Ġso",
        "on"
      ],
      [
        "Ġb",
        "rave"
      ],
      [
        "ur",
        "t"
      ],
      [
        "Ġt",
        "e"
      ],
      [
        "Ġg",
        "l"
      ],
      [
        "Ġwal",
        "ked"
      ],
      [
        "is",
        "ed"
      ],
      [
        "Ġst",
        "ill"
      ],
      [
        "Ġadvent",
        "ure"
      ],
      [
        "ĠL",
        "ucy"
      ],
      [
        "Ġf",
        "ly"
      ],
      [
        "Ġfam",
        "ily"
      ],
      [
        "Ġf",
        "i"
      ],
      [
        "ĠA",
        "nd"
      ],
      [
        "Ġst",
        "o"
      ],
      [
        "T",
        "h"
      ],
      [
        "Ġco",
        "l"
      ],
      [
        "ig",
        "h"
      ],
      [
        "ic",
        "ed"
      ],
      [
        "Ġlo",
        "ve"
      ],
      [
        "l",
        "ed"
      ],
      [
        "Ġbe",
        "fore"
      ],
      [
        "ĠF",
        "rom"
      ],
      [
        "Ġcare",
        "ful"
      ],
      [
        "Ġlear",
        "ned"
      ],
      [
        "Ġf",
        "ore"
      ],
      [
        "Ġl",
        "oud"
      ],
      [
        "Ġc",
        "on"
      ],
      [
        "op",
        "le"
      ],
      [
        "Ġanimal",
        "s"
      ],
      [
        "Ġo",
        "w"
      ],
      [
        "Ġpl",
        "ace"
      ],
      [
        "Ġs",
        "orry"
      ],
      [
        "ar",
        "y"
      ],
      [
        "Ġwal",
        "king"
      ],
      [
        "Ġy",
        "ear"
      ],
      [
        "g",
        "ry"
      ],
      [
        "Ġf",
        "ar"
      ],
      [
        "i",
        "p"
      ],
      [
        "i",
        "es"
      ],
      [
        "Ġu",
        "nder"
      ],
      [
        "Ġsa",
        "fe"
      ],
      [
        "oo",
        "l"
      ],
      [
        "Ġgo",
        "ing"
      ],
      [
        "T",
        "om"
      ],
      [
        "ĠW",
        "e"
      ],
      [
        "o",
        "y"
      ],
      [
        "Ġim",
        "p"
      ],
      [
        "i",
        "ed"
      ],
      [
        "Ġn",
        "ow"
      ],
      [
        "ill",
        "y"
      ],
      [
        "s",
        "h"
      ],
      [
        "ĠS",
        "uddenly"
      ],
      [
        "ĠW",
        "hen"
      ],
      [
        "Ġsto",
        "pped"
      ],
      [
        "Ġf",
        "r"
      ],
      [
        "Ġpe",
        "ople"
      ],
      [
        "Ġnot",
        "iced"
      ],
      [
        "x",
        "t"
      ],
      [
        "T",
        "hat"
      ],
      [
        "Ġl",
        "ist"
      ],
      [
        "g",
        "an"
      ],
      [
        "Ġqu",
        "ick"
      ],
      [
        "a",
        "se"
      ],
      [
        "J",
        "o"
      ],
      [
        "Ġl",
        "et"
      ],
      [
        "Ġd",
        "el"
      ],
      [
        "j",
        "oy"
      ],
      [
        "Ġd",
        "an"
      ],
      [
        "T",
        "im"
      ],
      [
        "ĠA",
        "nna"
      ],
      [
        "o",
        "lly"
      ],
      [
        "ma",
        "z"
      ],
      [
        "t",
        "hing"
      ],
      [
        "Ġa",
        "maz"
      ],
      [
        "Ġth",
        "ree"
      ],
      [
        "is",
        "hed"
      ],
      [
        "dd",
        "ed"
      ],
      [
        "Ġst",
        "or"
      ],
      [
        "bb",
        "it"
      ],
      [
        "i",
        "ous"
      ],
      [
        "Ġop",
        "ened"
      ],
      [
        "s",
        "er"
      ],
      [
        "Ġe",
        "y"
      ],
      [
        "Ġw",
        "ind"
      ],
      [
        "Ġevery",
        "one"
      ],
      [
        "Ġ",
        "ide"
      ],
      [
        "Ġm",
        "a"
      ],
      [
        "e",
        "et"
      ],
      [
        "Ġv",
        "o"
      ],
      [
        "ĠJo",
        "hn"
      ],
      [
        "S",
        "uddenly"
      ],
      [
        "an",
        "ge"
      ],
      [
        "Ġquick",
        "ly"
      ],
      [
        "ug",
        "ht"
      ],
      [
        "Ġwa",
        "r"
      ],
      [
        "Ġd",
        "is"
      ],
      [
        "Ġd",
        "e"
      ],
      [
        "Ġr",
        "ed"
      ],
      [
        "Ġwh",
        "ile"
      ],
      [
        "Ġen",
        "joy"
      ],
      [
        "Ġke",
        "ep"
      ],
      [
        "Ġra",
        "bbit"
      ],
      [
        "Ġide",
        "a"
      ],
      [
        "t",
        "ing"
      ],
      [
        "Ġto",
        "w"
      ],
      [
        "Ġth",
        "r"
      ],
      [
        "Ġ",
        "G"
      ],
      [
        "Ġg",
        "reat"
      ],
      [
        "Ġgr",
        "ound"
      ],
      [
        "is",
        "y"
      ],
      [
        "Ġloo",
        "king"
      ],
      [
        "he",
        "s"
      ],
      [
        "Ġwo",
        "nder"
      ],
      [
        "um",
        "my"
      ],
      [
        "g",
        "er"
      ],
      [
        "Ġt",
        "re"
      ],
      [
        "Ġsh",
        "ould"
      ],
      [
        "Ġwor",
        "k"
      ],
      [
        "ag",
        "e"
      ],
      [
        "Ġdo",
        "or"
      ],
      [
        "em",
        "b"
      ],
      [
        "ĠB",
        "ob"
      ],
      [
        "Ġu",
        "n"
      ],
      [
        "Ġsh",
        "iny"
      ],
      [
        "Ġre",
        "pl"
      ],
      [
        "Ġbe",
        "en"
      ],
      [
        "Ġch",
        "ild"
      ],
      [
        "Ġt",
        "ur"
      ],
      [
        "Ġvo",
        "ice"
      ],
      [
        "Ġw",
        "r"
      ],
      [
        "Ġne",
        "xt"
      ],
      [
        "Ġb",
        "ed"
      ],
      [
        "Ġe",
        "ver"
      ],
      [
        "Ġs",
        "n"
      ],
      [
        "Ġm",
        "or"
      ],
      [
        "Ġbr",
        "ight"
      ],
      [
        "Ġrem",
        "emb"
      ],
      [
        "t",
        "ed"
      ],
      [
        "Ġpick",
        "ed"
      ],
      [
        "f",
        "f"
      ],
      [
        "Ġ",
        "N"
      ],
      [
        "ĠJ",
        "ane"
      ],
      [
        "by",
        "e"
      ],
      [
        "Ġfa",
        "ce"
      ],
      [
        "Ġey",
        "es"
      ],
      [
        "h",
        "y"
      ],
      [
        "n",
        "er"
      ],
      [
        "ĠD",
        "ad"
      ],
      [
        "Ġre",
        "al"
      ],
      [
        "Ġno",
        "dded"
      ],
      [
        "a",
        "k"
      ],
      [
        "Ġfore",
        "st"
      ],
      [
        "Ġa",
        "fter"
      ],
      [
        "Ġcu",
        "ri"
      ],
      [
        "u",
        "ch"
      ],
      [
        "Ġne",
        "ar"
      ],
      [
        "Ġwal",
        "k"
      ],
      [
        "Ġrepl",
        "ied"
      ],
      [
        "Ġro",
        "ck"
      ],
      [
        "Ġgood",
        "bye"
      ],
      [
        "Ġcle",
        "an"
      ],
      [
        "Ġno",
        "ise"
      ],
      [
        "a",
        "isy"
      ],
      [
        "Ġd",
        "ra"
      ],
      [
        "Ġbe",
        "gan"
      ],
      [
        "Ġclo",
        "ser"
      ],
      [
        "a",
        "ble"
      ],
      [
        "Ġc",
        "ry"
      ],
      [
        "Ġg",
        "ive"
      ],
      [
        "Ġpret",
        "ty"
      ],
      [
        "Ġs",
        "qu"
      ],
      [
        "Ġsh",
        "are"
      ],
      [
        "Ġhand",
        "s"
      ],
      [
        "Ġcuri",
        "ous"
      ],
      [
        "Ġg",
        "re"
      ],
      [
        "bb",
        "ed"
      ],
      [
        "Ġh",
        "urt"
      ],
      [
        "Ġp",
        "er"
      ],
      [
        "Ġf",
        "ood"
      ],
      [
        "Ġp",
        "ain"
      ],
      [
        "o",
        "ck"
      ],
      [
        "l",
        "ie"
      ],
      [
        "Ġp",
        "ic"
      ],
      [
        "Ġbl",
        "ue"
      ],
      [
        "ĠA",
        "s"
      ],
      [
        "ir",
        "st"
      ],
      [
        "Ġb",
        "ad"
      ],
      [
        "Ġwa",
        "it"
      ],
      [
        "Ġa",
        "pp"
      ],
      [
        "Ġs",
        "ound"
      ],
      [
        "Ġd",
        "if"
      ],
      [
        "Ġwat",
        "ched"
      ],
      [
        "Ġstr",
        "ong"
      ],
      [
        "Ġtr",
        "uck"
      ],
      [
        "d",
        "ay"
      ],
      [
        "Ġb",
        "ook"
      ],
      [
        "Ġf",
        "ish"
      ],
      [
        "Ġbe",
        "ing"
      ],
      [
        "Ġr",
        "ight"
      ],
      [
        "Ġcol",
        "or"
      ],
      [
        "Ġwor",
        "ld"
      ],
      [
        "n",
        "g"
      ],
      [
        "ir",
        "ed"
      ],
      [
        "b",
        "e"
      ],
      [
        "Ġb",
        "it"
      ],
      [
        "ĠM",
        "ia"
      ],
      [
        "Jo",
        "hn"
      ],
      [
        "le",
        "s"
      ],
      [
        "ĠJo",
        "e"
      ],
      [
        "Ġwat",
        "ch"
      ],
      [
        "Ġm",
        "ag"
      ],
      [
        "im",
        "b"
      ],
      [
        "Ġdo",
        "ll"
      ],
      [
        "Ġbec",
        "ame"
      ],
      [
        "Ġsh",
        "out"
      ],
      [
        "ĠEvery",
        "one"
      ],
      [
        "Ġcl",
        "imb"
      ],
      [
        "Ġ",
        "-"
      ],
      [
        "Ġle",
        "ave"
      ],
      [
        "Ġbo",
        "at"
      ],
      [
        "Ġthr",
        "ough"
      ],
      [
        "ll",
        "ow"
      ],
      [
        "Ġy",
        "ell"
      ],
      [
        "u",
        "ll"
      ],
      [
        "st",
        "er"
      ],
      [
        "ĠMom",
        "my"
      ],
      [
        "Ġs",
        "ure"
      ],
      [
        "Ġan",
        "gry"
      ],
      [
        "N",
        "o"
      ],
      [
        "k",
        "ay"
      ],
      [
        "Ġbut",
        "ter"
      ],
      [
        "Ġst",
        "ore"
      ],
      [
        "o",
        "on"
      ],
      [
        "Ġhe",
        "re"
      ],
      [
        "Ġm",
        "ouse"
      ],
      [
        "Ġn",
        "ight"
      ],
      [
        "Ġyear",
        "s"
      ],
      [
        "Ġho",
        "pped"
      ],
      [
        "Ġa",
        "c"
      ],
      [
        "Ġw",
        "here"
      ],
      [
        "Ġhe",
        "ad"
      ],
      [
        "ĠD",
        "aisy"
      ],
      [
        "Ġshow",
        "ed"
      ],
      [
        "Ġ",
        "R"
      ],
      [
        "re",
        "am"
      ],
      [
        "Ġcon",
        "t"
      ],
      [
        "s",
        "o"
      ],
      [
        "pp",
        "y"
      ],
      [
        "Ġr",
        "ain"
      ],
      [
        "Ġse",
        "en"
      ],
      [
        "a",
        "ched"
      ],
      [
        "Ġre",
        "ady"
      ]
    ]
  }
}